50 04 00 00 00 00 00 58
50 08 00 00 00 00 00 28
42 0c 08 00 00 00 00 00
04 04 08 00 00 00 00 04
90 08 10 00 00 00 00 01
0c 10 18 00 00 00 00 01
80 0c 18 00 00 00 00 01
02 00 00 40 00 00 00 00
10 0c 00 00 00 00 00 28
10 08 00 00 00 00 00 10
00 00 00 00 00 00 00 00
0d 3f 74 fd
0b 36 94 b4
07 ee c9 1d
03 b1 65 d7
00 d3 43 2c
07 90 5a 12
08 a4 dd 49
01 22 72 95
0e 50 51 98
06 41 df 7c
0f 62 b9 35
0c 1c e6 49
03 fa e1 e8
01 ff 93 0f
09 83 2e 2b
04 f0 cc 4d
02 e0 38 8a
08 f7 41 68
08 50 17 de
02 eb 82 bd
0f e0 52 f9
0e ec 77 50
0e c8 dc 02
0a 13 22 d1
04 7c 58 a0
08 26 e8 4c
0c 39 5c 79
0a 0c 8f 12
0f 8f 98 ae
0d 09 61 a8
06 d6 bb b7
06 a1 ad 10
0c 45 70 db
0f 15 06 54
02 9e d7 11
0e 0e cc ca
0e 32 f6 40
01 04 4b 2e
05 a4 23 d1
0c 0b 6f b5